const unsigned char model[] = {
  0x1c, 0x00, 0x00, 0x00, 0x54, 0x46, 0x4c, 0x33, 0x14, 0x00, 0x20, 0x00,
  0x1c, 0x00, 0x18, 0x00, 0x14, 0x00, 0x10, 0x00, 0x0c, 0x00, 0x00, 0x00,
  0x08, 0x00, 0x04, 0x00, 0x14, 0x00, 0x00, 0x00, 0x1c, 0x00, 0x00, 0x00,
  0x88, 0x00, 0x00, 0x00, 0x08, 0x01, 0x00, 0x00, 0x58, 0x0d, 0x00, 0x00,
  0x68, 0x0d, 0x00, 0x00, 0x40, 0x1b, 0x00, 0x00, 0x03, 0x00, 0x00, 0x00,
  0x01, 0x00, 0x00, 0x00, 0x04, 0x00, 0x00, 0x00, 0x9e, 0xf1, 0xff, 0xff,
  0x0c, 0x00, 0x00, 0x00, 0x1c, 0x00, 0x00, 0x00, 0x38, 0x00, 0x00, 0x00,
  0x0f, 0x00, 0x00, 0x00, 0x73, 0x65, 0x72, 0x76, 0x69, 0x6e, 0x67, 0x5f,
  0x64, 0x65, 0x66, 0x61, 0x75, 0x6c, 0x74, 0x00, 0x01, 0x00, 0x00, 0x00,
  0x04, 0x00, 0x00, 0x00, 0x6c, 0xff, 0xff, 0xff, 0x11, 0x00, 0x00, 0x00,
  0x04, 0x00, 0x00, 0x00, 0x07, 0x00, 0x00, 0x00, 0x64, 0x65, 0x6e, 0x73,
  0x65, 0x5f, 0x33, 0x00, 0x01, 0x00, 0x00, 0x00, 0x04, 0x00, 0x00, 0x00,
  0x7e, 0xf2, 0xff, 0xff, 0x04, 0x00, 0x00, 0x00, 0x0e, 0x00, 0x00, 0x00,
  0x63, 0x6f, 0x6e, 0x76, 0x32, 0x64, 0x5f, 0x33, 0x5f, 0x69, 0x6e, 0x70,
  0x75, 0x74, 0x00, 0x00, 0x03, 0x00, 0x00, 0x00, 0x5c, 0x00, 0x00, 0x00,
  0x2c, 0x00, 0x00, 0x00, 0x04, 0x00, 0x00, 0x00, 0xb8, 0xff, 0xff, 0xff,
  0x15, 0x00, 0x00, 0x00, 0x04, 0x00, 0x00, 0x00, 0x13, 0x00, 0x00, 0x00,
  0x43, 0x4f, 0x4e, 0x56, 0x45, 0x52, 0x53, 0x49, 0x4f, 0x4e, 0x5f, 0x4d,
  0x45, 0x54, 0x41, 0x44, 0x41, 0x54, 0x41, 0x00, 0xdc, 0xff, 0xff, 0xff,
  0x14, 0x00, 0x00, 0x00, 0x04, 0x00, 0x00, 0x00, 0x13, 0x00, 0x00, 0x00,
  0x6d, 0x69, 0x6e, 0x5f, 0x72, 0x75, 0x6e, 0x74, 0x69, 0x6d, 0x65, 0x5f,
  0x76, 0x65, 0x72, 0x73, 0x69, 0x6f, 0x6e, 0x00, 0x08, 0x00, 0x0c, 0x00,
  0x08, 0x00, 0x04, 0x00, 0x08, 0x00, 0x00, 0x00, 0x13, 0x00, 0x00, 0x00,
  0x04, 0x00, 0x00, 0x00, 0x13, 0x00, 0x00, 0x00, 0x6d, 0x69, 0x6e, 0x5f,
  0x72, 0x75, 0x6e, 0x74, 0x69, 0x6d, 0x65, 0x5f, 0x76, 0x65, 0x72, 0x73,
  0x69, 0x6f, 0x6e, 0x00, 0x16, 0x00, 0x00, 0x00, 0x4c, 0x0c, 0x00, 0x00,
  0x44, 0x0c, 0x00, 0x00, 0x2c, 0x0c, 0x00, 0x00, 0x10, 0x0c, 0x00, 0x00,
  0xe8, 0x0b, 0x00, 0x00, 0xb8, 0x0b, 0x00, 0x00, 0xa8, 0x02, 0x00, 0x00,
  0x78, 0x02, 0x00, 0x00, 0x48, 0x01, 0x00, 0x00, 0x28, 0x01, 0x00, 0x00,
  0xf4, 0x00, 0x00, 0x00, 0xec, 0x00, 0x00, 0x00, 0xe4, 0x00, 0x00, 0x00,
  0xdc, 0x00, 0x00, 0x00, 0xd4, 0x00, 0x00, 0x00, 0xcc, 0x00, 0x00, 0x00,
  0xc4, 0x00, 0x00, 0x00, 0xbc, 0x00, 0x00, 0x00, 0xb4, 0x00, 0x00, 0x00,
  0x94, 0x00, 0x00, 0x00, 0x74, 0x00, 0x00, 0x00, 0x04, 0x00, 0x00, 0x00,
  0x7a, 0xf3, 0xff, 0xff, 0x04, 0x00, 0x00, 0x00, 0x60, 0x00, 0x00, 0x00,
  0x0c, 0x00, 0x00, 0x00, 0x08, 0x00, 0x0e, 0x00, 0x08, 0x00, 0x04, 0x00,
  0x08, 0x00, 0x00, 0x00, 0x10, 0x00, 0x00, 0x00, 0x28, 0x00, 0x00, 0x00,
  0x00, 0x00, 0x06, 0x00, 0x08, 0x00, 0x04, 0x00, 0x06, 0x00, 0x00, 0x00,
  0x04, 0x00, 0x00, 0x00, 0x01, 0x00, 0x00, 0x00, 0xeb, 0x03, 0x00, 0x00,
  0x0c, 0x00, 0x18, 0x00, 0x14, 0x00, 0x10, 0x00, 0x0c, 0x00, 0x04, 0x00,
  0x0c, 0x00, 0x00, 0x00, 0x5a, 0xdd, 0x33, 0x04, 0x8d, 0xe0, 0x94, 0x4e,
  0x02, 0x00, 0x00, 0x00, 0x02, 0x00, 0x00, 0x00, 0x04, 0x00, 0x00, 0x00,
  0x06, 0x00, 0x00, 0x00, 0x32, 0x2e, 0x31, 0x38, 0x2e, 0x30, 0x00, 0x00,
  0xe6, 0xf3, 0xff, 0xff, 0x04, 0x00, 0x00, 0x00, 0x10, 0x00, 0x00, 0x00,
  0x00, 0x00, 0x00, 0x00, 0x00, 0x00, 0x00, 0x00, 0x00, 0x00, 0x00, 0x00,
  0x00, 0x00, 0x00, 0x00, 0x02, 0xf4, 0xff, 0xff, 0x04, 0x00, 0x00, 0x00,
  0x10, 0x00, 0x00, 0x00, 0x31, 0x2e, 0x31, 0x34, 0x2e, 0x30, 0x00, 0x00,
  0x00, 0x00, 0x00, 0x00, 0x00, 0x00, 0x00, 0x00, 0x94, 0xe7, 0xff, 0xff,
  0x98, 0xe7, 0xff, 0xff, 0x9c, 0xe7, 0xff, 0xff, 0xa0, 0xe7, 0xff, 0xff,
  0xa4, 0xe7, 0xff, 0xff, 0xa8, 0xe7, 0xff, 0xff, 0xac, 0xe7, 0xff, 0xff,
  0xb0, 0xe7, 0xff, 0xff, 0x3e, 0xf4, 0xff, 0xff, 0x04, 0x00, 0x00, 0x00,
  0x24, 0x00, 0x00, 0x00, 0x2a, 0x4e, 0x3f, 0x55, 0x56, 0x29, 0x53, 0x7b,
  0x7f, 0xbc, 0xfd, 0xf6, 0xf7, 0xff, 0x25, 0xcb, 0xc6, 0x7f, 0x13, 0x13,
  0xab, 0xb3, 0x81, 0x83, 0x22, 0xab, 0x5c, 0xc9, 0xea, 0x7f, 0xc4, 0xb9,
  0x0a, 0x1d, 0x26, 0xda, 0x6e, 0xf4, 0xff, 0xff, 0x04, 0x00, 0x00, 0x00,
  0x10, 0x00, 0x00, 0x00, 0xfd, 0x4b, 0xe4, 0xff, 0xec, 0xeb, 0x1f, 0x00,
  0xf1, 0xdd, 0xfa, 0xff, 0x49, 0xd3, 0x24, 0x00, 0x8a, 0xf4, 0xff, 0xff,
  0x04, 0x00, 0x00, 0x00, 0x20, 0x01, 0x00, 0x00, 0x1e, 0x17, 0x0f, 0xdd,
  0x4b, 0xce, 0xe1, 0x18, 0xf4, 0xcd, 0xda, 0xd8, 0xf1, 0x07, 0xcc, 0x0e,
  0x4d, 0x28, 0x16, 0xd1, 0x77, 0x86, 0xd9, 0xae, 0x1b, 0xc9, 0xb0, 0xc0,
  0x64, 0xff, 0xd9, 0x10, 0xca, 0x81, 0xff, 0xa8, 0xe2, 0xdd, 0x16, 0x7f,
  0x2a, 0x68, 0xf1, 0x46, 0xac, 0x19, 0x14, 0xf7, 0x54, 0x2a, 0xa0, 0x59,
  0xcc, 0x40, 0xa2, 0x27, 0xf1, 0x2e, 0x31, 0xf4, 0x30, 0x1f, 0x92, 0x48,
  0x27, 0x0a, 0x4b, 0xe5, 0xf0, 0x09, 0xc5, 0x14, 0xa0, 0x78, 0xbd, 0x32,
  0xbe, 0x3b, 0xa8, 0xc9, 0x81, 0x44, 0xaf, 0x88, 0x48, 0x94, 0x53, 0x0c,
  0xd4, 0x86, 0x20, 0x24, 0xe6, 0xf3, 0xc4, 0xd8, 0xb0, 0xf6, 0x2a, 0xfd,
  0xb3, 0xcf, 0x17, 0xbd, 0x53, 0xc6, 0xff, 0xd6, 0x6c, 0xab, 0x40, 0xa2,
  0x43, 0x53, 0x31, 0x00, 0x31, 0x9f, 0x28, 0x9a, 0x65, 0x00, 0x3e, 0x41,
  0x24, 0x01, 0xdd, 0x61, 0x4e, 0xc5, 0x21, 0xc0, 0x44, 0xd5, 0x16, 0x53,
  0xc9, 0x81, 0xf6, 0x20, 0xae, 0x91, 0xd0, 0x0f, 0xe1, 0x14, 0xf2, 0x13,
  0xc8, 0xec, 0x37, 0x24, 0xdc, 0x4f, 0x21, 0x7f, 0x14, 0xeb, 0xfd, 0xed,
  0x29, 0x47, 0xfb, 0x0a, 0xe9, 0x6a, 0x32, 0x3b, 0x2e, 0x0a, 0x19, 0xed,
  0xec, 0x1e, 0xe5, 0x39, 0x3b, 0x69, 0xdc, 0x56, 0xd3, 0x73, 0xf6, 0x64,
  0x2f, 0x79, 0x2f, 0x28, 0xdc, 0xf3, 0xf3, 0x1c, 0xe4, 0x4f, 0x37, 0x51,
  0x3f, 0x6a, 0x1e, 0x7d, 0x44, 0x20, 0xf5, 0x4f, 0xde, 0x18, 0xce, 0x7f,
  0xfc, 0x6e, 0x42, 0x77, 0x13, 0xed, 0xf7, 0xef, 0x2f, 0xc5, 0x01, 0xda,
  0x19, 0xb6, 0x20, 0xd1, 0x17, 0xa1, 0x10, 0xaa, 0x08, 0xce, 0x26, 0x7f,
  0x0d, 0xd5, 0xf7, 0x3a, 0x52, 0x09, 0xd4, 0xf1, 0xd9, 0xc0, 0x1f, 0x35,
  0x1b, 0x12, 0xdb, 0x73, 0xea, 0xdd, 0xde, 0x6a, 0x0a, 0xfb, 0x20, 0x27,
  0xfa, 0xec, 0x2a, 0x09, 0x28, 0xe9, 0x01, 0xea, 0x2a, 0xff, 0x07, 0x38,
  0x27, 0xc4, 0x03, 0xe3, 0x14, 0xb4, 0xdb, 0x2b, 0xd7, 0xee, 0x17, 0x7f,
  0xe3, 0x34, 0x2d, 0x0e, 0x27, 0x06, 0x23, 0x20, 0xb6, 0xf5, 0xff, 0xff,
  0x04, 0x00, 0x00, 0x00, 0x20, 0x00, 0x00, 0x00, 0xeb, 0x24, 0xff, 0xff,
  0x8b, 0x18, 0x00, 0x00, 0x00, 0x00, 0x00, 0x00, 0x30, 0xed, 0xff, 0xff,
  0xa6, 0xc8, 0x00, 0x00, 0xd4, 0x34, 0x00, 0x00, 0x8c, 0xcb, 0xff, 0xff,
  0xc6, 0xf0, 0xff, 0xff, 0xe2, 0xf5, 0xff, 0xff, 0x04, 0x00, 0x00, 0x00,
  0x00, 0x09, 0x00, 0x00, 0xf1, 0x0c, 0xe9, 0xe8, 0x36, 0x08, 0xdf, 0x15,
  0xff, 0x13, 0xff, 0xe1, 0x74, 0x1b, 0x18, 0xfd, 0xf6, 0x4b, 0x0d, 0x06,
  0x68, 0x5e, 0x0d, 0x18, 0xf8, 0x2e, 0x0d, 0xe8, 0x6a, 0x2d, 0x0d, 0xff,
  0x0a, 0xfe, 0x16, 0xf9, 0x7f, 0x1c, 0xe6, 0xfa, 0x05, 0x19, 0x01, 0x0d,
  0x03, 0x2d, 0xfd, 0x0c, 0xe4, 0xe7, 0x1b, 0xfd, 0x1c, 0x22, 0xf7, 0xe1,
  0xe9, 0xeb, 0xff, 0xf9, 0x05, 0x3b, 0x1a, 0x08, 0xf5, 0x12, 0x13, 0x0f,
  0x35, 0x54, 0xed, 0x09, 0xfe, 0x55, 0xea, 0x0b, 0xfe, 0x39, 0xd9, 0xdc,
  0x0e, 0x0b, 0x1b, 0xef, 0x46, 0xf4, 0xec, 0xed, 0xfb, 0xff, 0xfd, 0xf6,
  0xdd, 0xf6, 0xdf, 0xf4, 0xf4, 0xdb, 0xfd, 0x16, 0x0b, 0xdf, 0xfd, 0x05,
  0xe8, 0xf9, 0x06, 0xec, 0x16, 0x22, 0x1e, 0x00, 0xfd, 0xda, 0x0d, 0x11,
  0xcb, 0x5f, 0x26, 0x2e, 0x1c, 0x01, 0x11, 0x18, 0xcb, 0x04, 0x0a, 0x18,
  0xfc, 0xf2, 0x0a, 0xee, 0xba, 0x02, 0x16, 0x10, 0x19, 0x27, 0x06, 0x0e,
  0xac, 0xf7, 0x0a, 0x19, 0x02, 0x03, 0x0c, 0xf9, 0xf2, 0x20, 0x0c, 0xed,
  0xe6, 0xff, 0x13, 0xe9, 0xf7, 0x3d, 0x08, 0xfb, 0xfb, 0x25, 0xf5, 0x12,
  0x1c, 0x2a, 0x21, 0x2a, 0x05, 0x25, 0x0e, 0x1e, 0xe1, 0xf7, 0xe7, 0x11,
  0x0d, 0x00, 0x0d, 0xff, 0x0b, 0xf7, 0x0a, 0x1b, 0xeb, 0x08, 0xeb, 0xf1,
  0x9e, 0x06, 0x1a, 0xfe, 0xec, 0x05, 0xeb, 0x0d, 0x0d, 0xeb, 0xf7, 0xfd,
  0x0f, 0xf6, 0x12, 0x01, 0xec, 0xf9, 0xeb, 0xfd, 0x07, 0x0d, 0xfd, 0x10,
  0x1d, 0x16, 0x1f, 0x0d, 0xfe, 0x1d, 0x06, 0xf0, 0x07, 0xe9, 0x01, 0xf2,
  0x0a, 0xea, 0xfc, 0x07, 0xf4, 0x11, 0xf2, 0x01, 0x0d, 0x25, 0xe9, 0x00,
  0xd9, 0x01, 0xf4, 0x00, 0x01, 0xfa, 0x18, 0x0f, 0xdc, 0xe0, 0xe6, 0x02,
  0x07, 0xf8, 0xfe, 0x0e, 0x21, 0x0e, 0x04, 0x04, 0xf8, 0xfb, 0xef, 0x02,
  0x0e, 0x12, 0x1b, 0x05, 0xff, 0x06, 0x01, 0xf5, 0xef, 0xef, 0x1e, 0x01,
  0xf8, 0xde, 0x03, 0x0f, 0xef, 0xf6, 0x04, 0x06, 0x17, 0x12, 0x14, 0x0f,
  0xaf, 0xee, 0xea, 0x0d, 0xab, 0xff, 0xae, 0x0d, 0xb8, 0x44, 0xdf, 0x0d,
  0x34, 0xc9, 0xba, 0x41, 0xef, 0x5d, 0x52, 0xa0, 0xfd, 0x23, 0x2b, 0x3e,
  0xe7, 0x3c, 0x35, 0xfb, 0x1f, 0x99, 0x69, 0xb9, 0xa8, 0x9c, 0xe2, 0x9f,
  0x0b, 0x01, 0x2b, 0xa2, 0xed, 0xd5, 0xd4, 0x29, 0x21, 0x59, 0x05, 0x2e,
  0xef, 0x55, 0x36, 0xf4, 0x2e, 0xce, 0x5a, 0xb2, 0x4c, 0x3c, 0x44, 0xec,
  0x20, 0xda, 0xf0, 0x2a, 0xb6, 0x21, 0xab, 0x94, 0xe0, 0xe6, 0x20, 0x23,
  0x09, 0xe7, 0x1c, 0x3c, 0x4c, 0x03, 0x66, 0xc1, 0x23, 0xf5, 0x48, 0xc6,
  0xdd, 0x1c, 0xb4, 0x8f, 0x03, 0x3a, 0xbc, 0xbd, 0x0c, 0x06, 0xf3, 0xc1,
  0x18, 0xf9, 0xb2, 0x02, 0x9c, 0xd5, 0xab, 0x04, 0xbc, 0x3b, 0x55, 0xa1,
  0xfd, 0xc7, 0xe8, 0xd8, 0xb1, 0x32, 0xfc, 0x41, 0x01, 0x25, 0x19, 0x4a,
  0xa2, 0xf1, 0xed, 0xc4, 0xee, 0xf0, 0x31, 0xd5, 0xcd, 0x88, 0xf8, 0x30,
  0xda, 0xb8, 0xed, 0x8f, 0xf4, 0xde, 0x5d, 0x08, 0xcd, 0xce, 0x2d, 0xa6,
  0x15, 0x2c, 0x16, 0xc7, 0xa3, 0xd7, 0x48, 0xc7, 0x2b, 0xa2, 0xab, 0xab,
  0xef, 0x34, 0x37, 0x3a, 0x0e, 0x94, 0xc3, 0xbb, 0x39, 0xd3, 0x08, 0x01,
  0xdf, 0xde, 0x8a, 0xee, 0xc3, 0xe1, 0x46, 0x2b, 0x1e, 0x2e, 0x54, 0x2b,
  0x42, 0x93, 0xa7, 0x0d, 0xa5, 0x19, 0xb3, 0x0e, 0xca, 0x2b, 0x55, 0xce,
  0xa8, 0x35, 0xa8, 0xb7, 0xa4, 0xa3, 0x07, 0x08, 0x3c, 0xb7, 0xa6, 0xbf,
  0x86, 0xb9, 0xbd, 0xc7, 0xcf, 0x13, 0x1c, 0x49, 0x99, 0x09, 0xc8, 0x81,
  0x30, 0x50, 0xf2, 0xaf, 0xae, 0x1f, 0x29, 0xcd, 0xc6, 0x5a, 0x47, 0x9c,
  0x46, 0xcc, 0xf6, 0xf4, 0xd1, 0x49, 0xd9, 0xbe, 0x25, 0xc8, 0x22, 0x30,
  0x43, 0xfd, 0x1a, 0xcf, 0xb7, 0xd3, 0x10, 0xa0, 0xe8, 0x44, 0x34, 0xd8,
  0x88, 0xbc, 0xa8, 0xb1, 0xa7, 0x4d, 0x91, 0xdf, 0x11, 0xc5, 0x05, 0x2a,
  0xdc, 0xf3, 0x04, 0x5a, 0xdf, 0x46, 0x14, 0xc0, 0x27, 0x9a, 0x84, 0x21,
  0x24, 0xec, 0x07, 0x87, 0x3c, 0xd3, 0xdb, 0xd4, 0x07, 0x59, 0x04, 0x9d,
  0xb4, 0xd2, 0xf7, 0x34, 0x15, 0xc2, 0x12, 0x16, 0xb8, 0xe1, 0xfd, 0x2a,
  0x01, 0xbe, 0xe0, 0x0a, 0xa4, 0xcb, 0x11, 0x16, 0x19, 0xb6, 0x01, 0xdd,
  0x43, 0xc3, 0xd2, 0x09, 0x32, 0x01, 0xd8, 0x2d, 0x16, 0xf7, 0xea, 0xe4,
  0xfa, 0x50, 0x32, 0xff, 0x27, 0x3a, 0xfe, 0x15, 0x08, 0x2c, 0x2e, 0x0a,
  0xee, 0xee, 0xfb, 0xfa, 0x29, 0x19, 0xfb, 0x05, 0x8a, 0xc4, 0xeb, 0x17,
  0xe1, 0xd3, 0xe8, 0xdf, 0x71, 0x95, 0x08, 0xdb, 0xe4, 0x3a, 0x12, 0xe6,
  0x3c, 0x14, 0xed, 0x07, 0x0d, 0x18, 0x17, 0xea, 0xea, 0x3d, 0x0f, 0x34,
  0x28, 0x4a, 0x03, 0x41, 0xca, 0x29, 0x35, 0x00, 0x02, 0xf9, 0x2f, 0xdf,
  0xa4, 0xdb, 0x32, 0x13, 0xd1, 0xd8, 0xf1, 0x2f, 0xfe, 0xec, 0x23, 0xe0,
  0x1f, 0xfb, 0xd5, 0x22, 0x16, 0xef, 0xec, 0xea, 0x26, 0x1c, 0xee, 0x2e,
  0xca, 0x5e, 0xf0, 0x28, 0x27, 0x18, 0x1d, 0x41, 0x1e, 0x40, 0x39, 0xe6,
  0x36, 0xe1, 0x0c, 0x1e, 0x6a, 0x09, 0x37, 0xfa, 0xfa, 0xcf, 0xe2, 0x05,
  0x72, 0x0f, 0x19, 0x36, 0xdb, 0x1c, 0xff, 0x12, 0x27, 0xcd, 0x22, 0xfa,
  0xf8, 0xed, 0xda, 0xe6, 0x5e, 0xed, 0xf5, 0x11, 0x0e, 0x2b, 0xd9, 0x22,
  0xee, 0xf9, 0x34, 0x1d, 0xdf, 0xed, 0xd5, 0xfe, 0x26, 0x0f, 0xe4, 0xe4,
  0x26, 0x17, 0x0f, 0x29, 0x04, 0xf4, 0xd5, 0xe6, 0xd0, 0xea, 0x06, 0xf8,
  0x7f, 0x09, 0x1e, 0xd5, 0xd4, 0xc9, 0x13, 0x0e, 0xa0, 0xf7, 0xd7, 0xd2,
  0x08, 0xeb, 0xfc, 0x14, 0xa8, 0xed, 0x32, 0x0d, 0x45, 0xdc, 0x1b, 0x0e,
  0x05, 0x02, 0xdf, 0xf4, 0xc2, 0xe4, 0x26, 0x00, 0xdb, 0x3d, 0xe8, 0xf1,
  0x29, 0xdc, 0xde, 0xe9, 0xe2, 0xcb, 0x11, 0x26, 0xd8, 0xd2, 0xed, 0x1b,
  0x4b, 0xec, 0xf4, 0xde, 0x1b, 0x04, 0xd4, 0xee, 0x51, 0x0f, 0xd5, 0x10,
  0xf4, 0x0e, 0x0d, 0x2a, 0xfa, 0xe2, 0x29, 0x06, 0x1b, 0xf1, 0x1d, 0x16,
  0x25, 0xf6, 0xe7, 0xdc, 0xd4, 0x00, 0xf7, 0x16, 0xfc, 0x08, 0xc6, 0xe6,
  0xd4, 0xd7, 0xf8, 0xc5, 0xf1, 0xeb, 0xdb, 0x12, 0xe4, 0x0a, 0x01, 0xe3,
  0x17, 0xc2, 0xd1, 0xf2, 0x0f, 0x3d, 0xba, 0xa2, 0xb2, 0x26, 0xac, 0x31,
  0xd9, 0x4d, 0xaa, 0x87, 0x5d, 0x9d, 0x29, 0x1f, 0x28, 0xfb, 0x50, 0x93,
  0x2e, 0x63, 0x27, 0xae, 0xbd, 0x81, 0x59, 0x1e, 0x50, 0x09, 0x94, 0x05,
  0xda, 0x16, 0x38, 0x24, 0x1f, 0x36, 0x9b, 0xea, 0xd9, 0x30, 0x58, 0xc0,
  0x3f, 0x88, 0x63, 0x54, 0xd0, 0x26, 0xb8, 0x82, 0x5d, 0x1d, 0x57, 0x08,
  0x3c, 0xc7, 0xcd, 0x95, 0x23, 0xd9, 0x3f, 0xbf, 0x63, 0xd8, 0x25, 0xf0,
  0xe3, 0x22, 0x1b, 0xe6, 0x52, 0x07, 0x9f, 0xa9, 0x4f, 0x42, 0xb2, 0x62,
  0x58, 0xb0, 0x60, 0x90, 0xa8, 0x3b, 0xca, 0xc1, 0xe4, 0x5c, 0x54, 0x39,
  0x29, 0x94, 0x67, 0xf3, 0xec, 0xc6, 0x52, 0x08, 0xcb, 0x06, 0x03, 0x61,
  0x9c, 0x4c, 0x9f, 0x1e, 0xdf, 0x38, 0x42, 0x29, 0x9f, 0x3c, 0xb6, 0x4b,
  0xf2, 0x93, 0x1d, 0x8e, 0xd6, 0x59, 0xba, 0x51, 0xc1, 0x66, 0x43, 0x4c,
  0x06, 0x8e, 0x40, 0x82, 0x40, 0x3a, 0xfa, 0x2d, 0x36, 0xd8, 0xdd, 0x1b,
  0x4c, 0xd4, 0x09, 0xb9, 0xd8, 0xd8, 0x14, 0x42, 0xe7, 0xbc, 0xa0, 0xe3,
  0xa1, 0x15, 0xa5, 0xb0, 0x9c, 0x4f, 0x16, 0x5b, 0xa9, 0xf0, 0xa9, 0xcf,
  0x47, 0x9c, 0x3f, 0x22, 0x3d, 0x1a, 0xb6, 0xe7, 0xc2, 0xec, 0xe6, 0xc9,
  0xc5, 0x92, 0x4e, 0x1e, 0x66, 0x07, 0x5a, 0xb3, 0x40, 0x32, 0x4b, 0x53,
  0xa7, 0xcc, 0xa1, 0x9e, 0x17, 0x4e, 0x98, 0x29, 0x44, 0xa6, 0x82, 0x81,
  0xc9, 0x53, 0x5d, 0xef, 0x54, 0xc0, 0x07, 0x08, 0x92, 0xe4, 0xb9, 0xf7,
  0xa5, 0x51, 0x4f, 0x63, 0x31, 0x5a, 0x53, 0xe2, 0x3c, 0x06, 0x8e, 0x41,
  0xb0, 0xa0, 0x68, 0x2e, 0x48, 0x83, 0x90, 0x08, 0x3e, 0xf8, 0xa2, 0xb2,
  0xcd, 0xb5, 0xcb, 0xa3, 0xae, 0xd3, 0xa3, 0x30, 0x40, 0xda, 0xc8, 0x0e,
  0xf0, 0x14, 0x99, 0xae, 0xa9, 0x32, 0x90, 0xf3, 0x5e, 0x83, 0x41, 0x2f,
  0xc0, 0x25, 0xde, 0x88, 0x95, 0x89, 0x19, 0x91, 0x5d, 0xb2, 0x3f, 0x3d,
  0x0c, 0x9f, 0x6b, 0xf2, 0xc4, 0x31, 0xe7, 0xc3, 0xa0, 0xd7, 0xf9, 0xa0,
  0x9e, 0xd7, 0x2d, 0xf0, 0xeb, 0x23, 0xdc, 0x30, 0x28, 0x1f, 0x20, 0x0d,
  0x1b, 0x03, 0x20, 0x2c, 0xdc, 0x5c, 0x24, 0x02, 0x27, 0xde, 0x00, 0x02,
  0xa9, 0xf9, 0x2a, 0xfe, 0xf0, 0xb0, 0xed, 0x0c, 0x84, 0xe9, 0x0f, 0x2a,
  0xfd, 0xd8, 0xed, 0x05, 0x81, 0xe0, 0xfe, 0xfa, 0xed, 0x04, 0x20, 0x14,
  0x07, 0x17, 0x21, 0x0c, 0x14, 0x47, 0x0e, 0xea, 0x60, 0x0f, 0x2d, 0xf1,
  0xeb, 0x05, 0x04, 0x2d, 0xbf, 0x18, 0xec, 0xf2, 0xff, 0xec, 0xe7, 0x15,
  0xbb, 0xbd, 0x0b, 0x20, 0xd6, 0xce, 0x09, 0xf6, 0x35, 0xfa, 0x1e, 0xe8,
  0xd7, 0xb8, 0x06, 0xec, 0x24, 0xd2, 0x21, 0x1f, 0xf4, 0xfb, 0x23, 0x07,
  0x7f, 0x46, 0x32, 0x02, 0xe7, 0x23, 0xfc, 0xe6, 0x58, 0xfd, 0x07, 0xf6,
  0xdf, 0x54, 0x06, 0x15, 0x26, 0xfb, 0xe0, 0x14, 0xf3, 0x31, 0xf9, 0x0c,
  0x4f, 0x9c, 0xd1, 0xb9, 0xd4, 0xfa, 0xe0, 0xcd, 0x7a, 0xe1, 0xce, 0x0b,
  0x02, 0x0e, 0x0f, 0xcf, 0x4f, 0xd7, 0xf5, 0xed, 0xe4, 0xef, 0x0e, 0xdf,
  0x79, 0x21, 0xf3, 0x0d, 0x09, 0x29, 0xfc, 0x2c, 0xdf, 0x14, 0x26, 0xfa,
  0xfa, 0x22, 0x21, 0x25, 0xdb, 0xf4, 0x09, 0x1f, 0x09, 0xf2, 0xe4, 0xed,
  0x06, 0xd7, 0xe0, 0xf8, 0xf2, 0xc9, 0xf9, 0xef, 0xea, 0xfc, 0x16, 0x1c,
  0x32, 0x27, 0xf6, 0x1b, 0xf9, 0x13, 0xf9, 0x02, 0xf6, 0x1e, 0xe6, 0xf5,
  0x51, 0x11, 0x1c, 0xec, 0xfa, 0x33, 0xee, 0x15, 0x4b, 0xfc, 0xe9, 0x02,
  0x21, 0x22, 0x08, 0x28, 0x0f, 0xfa, 0x0b, 0x21, 0x05, 0xec, 0xe0, 0x1d,
  0xf9, 0xf3, 0xe4, 0x12, 0xff, 0x09, 0xf3, 0x0f, 0xe8, 0x03, 0x20, 0x14,
  0xf3, 0x07, 0x0d, 0x26, 0x00, 0x33, 0x2c, 0x27, 0x27, 0xee, 0xeb, 0xfb,
  0x13, 0x11, 0x00, 0x25, 0xff, 0x07, 0x13, 0x17, 0x0f, 0x20, 0xfb, 0xeb,
  0xf7, 0x19, 0x1e, 0x2f, 0x00, 0xee, 0x08, 0x0d, 0x09, 0x13, 0xdf, 0x15,
  0xe1, 0xd0, 0xf7, 0x19, 0x2c, 0xf9, 0x04, 0x03, 0x1e, 0x2b, 0x2e, 0x14,
  0x2d, 0x60, 0xe4, 0x17, 0x3d, 0x38, 0xf9, 0x11, 0x2b, 0xec, 0x13, 0x1c,
  0x3c, 0x18, 0x05, 0x34, 0xd8, 0xd4, 0xee, 0xf4, 0xd2, 0x13, 0xec, 0xd0,
  0xf1, 0xc1, 0x29, 0x17, 0xdd, 0xdc, 0x0b, 0xe4, 0xe7, 0xda, 0xfa, 0x2a,
  0x40, 0xe5, 0x16, 0x2a, 0x26, 0x17, 0xfa, 0xf5, 0x7f, 0x12, 0x27, 0xf0,
  0xf7, 0x62, 0x0e, 0xd6, 0x4c, 0x1c, 0xcc, 0x1c, 0xf5, 0xec, 0x18, 0xd3,
  0xd9, 0xd0, 0xe3, 0x0e, 0xeb, 0xf6, 0x28, 0xde, 0xbe, 0xe2, 0x22, 0xe7,
  0x27, 0xee, 0x08, 0x1f, 0x0b, 0xe4, 0xed, 0xe7, 0xec, 0xe7, 0x12, 0x27,
  0x0b, 0xfb, 0x25, 0x03, 0x31, 0xfd, 0x19, 0xec, 0xaf, 0x09, 0x27, 0x37,
  0xeb, 0x4e, 0xf3, 0x2b, 0x96, 0x37, 0x2a, 0x32, 0xfc, 0x20, 0xdc, 0xe5,
  0x97, 0xcd, 0x05, 0xe2, 0x1e, 0xc3, 0xf5, 0xf8, 0xd0, 0xe7, 0xec, 0xe0,
  0x13, 0xf3, 0xe7, 0x29, 0xcd, 0xf9, 0x37, 0x04, 0x42, 0xda, 0xe1, 0x1f,
  0x92, 0x1b, 0x26, 0xfe, 0x28, 0x22, 0xea, 0x47, 0xa8, 0x14, 0x1a, 0x3f,
  0x0c, 0xd6, 0xe5, 0x29, 0x27, 0x12, 0x36, 0xe8, 0x1e, 0x04, 0xfe, 0x1a,
  0xc3, 0xef, 0x35, 0xf1, 0xce, 0xd6, 0xf2, 0x1b, 0x6e, 0xf6, 0xf5, 0xeb,
  0x20, 0xe4, 0x0f, 0x06, 0x4f, 0xe9, 0x13, 0x17, 0x12, 0x48, 0xd9, 0x00,
  0xda, 0x07, 0xe4, 0x03, 0xe9, 0xea, 0xd9, 0x10, 0x2f, 0xd0, 0x18, 0xf1,
  0xd1, 0xf5, 0xe0, 0x04, 0x34, 0x0b, 0x1b, 0xfc, 0xfd, 0xe1, 0x1b, 0xfb,
  0x2a, 0x05, 0x23, 0x23, 0xd7, 0x0c, 0xe0, 0x23, 0xbc, 0x19, 0xe1, 0xd6,
  0xed, 0xf5, 0x22, 0x0f, 0xcc, 0xfc, 0xe8, 0x09, 0x27, 0x23, 0x13, 0xec,
  0xee, 0xf4, 0x30, 0xe7, 0xb9, 0x16, 0xe1, 0x1f, 0x08, 0x17, 0x0d, 0xe4,
  0xca, 0x0d, 0xec, 0x19, 0xe0, 0xe5, 0xd1, 0xdf, 0xec, 0xe7, 0xe9, 0xc6,
  0x22, 0xe9, 0x17, 0xf8, 0x21, 0x0f, 0x1a, 0xd5, 0x12, 0x12, 0x18, 0xe3,
  0x0a, 0x06, 0x2a, 0x22, 0xd6, 0x0d, 0x06, 0x09, 0xfa, 0x0e, 0xe4, 0xf8,
  0xe5, 0x0c, 0x1f, 0xd5, 0xe0, 0x30, 0x27, 0x05, 0xd2, 0xe2, 0x09, 0xfb,
  0x1c, 0xb9, 0xd4, 0xeb, 0xc5, 0x00, 0x0d, 0xfb, 0xed, 0x27, 0x28, 0xe1,
  0x1c, 0xc7, 0xcb, 0xe9, 0xb5, 0xb1, 0x92, 0x14, 0xd8, 0xdd, 0x06, 0xfa,
  0xc5, 0xca, 0x99, 0x0b, 0x90, 0x25, 0x36, 0x28, 0x0c, 0x9e, 0xf4, 0x06,
  0x91, 0x68, 0xc3, 0xc8, 0xe8, 0xe4, 0x6d, 0xc3, 0xaa, 0xc2, 0x8f, 0xe0,
  0x56, 0x61, 0x50, 0xee, 0xbb, 0x51, 0xa2, 0xa0, 0x5c, 0x4e, 0xb9, 0x01,
  0x30, 0x2a, 0x63, 0xbd, 0xa3, 0xe6, 0x38, 0xba, 0x40, 0x6a, 0xb5, 0xf7,
  0xf9, 0x99, 0x73, 0xfb, 0xf9, 0x4d, 0xb3, 0xa5, 0x06, 0x68, 0x13, 0xe3,
  0xad, 0x3b, 0xfa, 0x0c, 0x55, 0xba, 0x48, 0x17, 0x40, 0x1d, 0x9a, 0x27,
  0xb0, 0x94, 0x0d, 0x0d, 0x3a, 0xb2, 0xf4, 0xc1, 0xe9, 0xa2, 0x63, 0xdb,
  0x35, 0x9b, 0xe3, 0x91, 0x69, 0x9f, 0x59, 0xd9, 0xf4, 0xec, 0xa7, 0xc6,
  0x38, 0x96, 0x8c, 0x1c, 0x89, 0x01, 0x9a, 0xc8, 0xe8, 0x97, 0x2d, 0x0e,
  0x20, 0xb0, 0xde, 0x60, 0x99, 0x26, 0xea, 0x25, 0x45, 0xe7, 0xe2, 0x45,
  0x16, 0xf9, 0xf1, 0xde, 0xee, 0xd9, 0x60, 0xa2, 0x6e, 0xde, 0x95, 0x10,
  0xb6, 0xb2, 0xc1, 0x94, 0xf8, 0x07, 0x0b, 0x6f, 0x67, 0x1b, 0x9b, 0x31,
  0x19, 0x58, 0xfc, 0xaa, 0xdc, 0x82, 0x88, 0x12, 0xc4, 0x3b, 0xd9, 0x0c,
  0x98, 0xf3, 0x36, 0xfd, 0x95, 0x31, 0xe5, 0xcf, 0x19, 0x61, 0x63, 0xf1,
  0x23, 0xd0, 0x03, 0x0e, 0xc1, 0x81, 0xd9, 0xe9, 0x91, 0xba, 0xf9, 0x29,
  0x30, 0x03, 0x62, 0x20, 0xa7, 0xb9, 0x35, 0x04, 0x2b, 0xfb, 0xe9, 0x21,
  0x3b, 0x49, 0x2c, 0x05, 0x25, 0xdf, 0x01, 0x51, 0x5e, 0x06, 0xb7, 0x07,
  0x8f, 0xa1, 0x12, 0x4b, 0xea, 0xbd, 0xa3, 0x9b, 0x20, 0xe8, 0xad, 0x0f,
  0xae, 0x85, 0xd3, 0x55, 0x69, 0xc5, 0x43, 0xbd, 0xe9, 0x13, 0x4e, 0x3b,
  0xc2, 0xba, 0x03, 0x09, 0x6e, 0x3b, 0xcb, 0x26, 0x31, 0xc1, 0x5c, 0xab,
  0x6e, 0x24, 0x19, 0xc3, 0x36, 0xf6, 0x36, 0x21, 0x2f, 0xf2, 0xcc, 0x9c,
  0xa8, 0x2a, 0xcc, 0x03, 0x02, 0x9e, 0x70, 0x62, 0x4c, 0x36, 0x48, 0x0a,
  0x04, 0x1e, 0x1d, 0x5d, 0x30, 0xad, 0xd5, 0x51, 0x2d, 0x66, 0x2d, 0x6e,
  0xb9, 0x12, 0x4c, 0x01, 0xbf, 0xcc, 0x04, 0x05, 0x9f, 0x09, 0x4f, 0xe4,
  0x11, 0xe0, 0x91, 0x9c, 0xa8, 0x10, 0xce, 0x2d, 0xe6, 0x11, 0x61, 0x93,
  0xf9, 0xab, 0xbe, 0xb6, 0x2f, 0x2f, 0xcf, 0x00, 0x08, 0xcc, 0x87, 0x74,
  0xfa, 0x99, 0xc6, 0x1c, 0xed, 0x19, 0xc0, 0x67, 0x86, 0x1c, 0xdf, 0x81,
  0x59, 0x13, 0x9c, 0xb7, 0x0e, 0xd8, 0xe8, 0xd3, 0x6b, 0xb7, 0x0b, 0xbd,
  0xf8, 0x04, 0x92, 0x3a, 0xe5, 0x75, 0x22, 0x2d, 0x2a, 0xe1, 0xbe, 0x3c,
  0x44, 0x02, 0x24, 0x4a, 0x98, 0xd5, 0x28, 0x4b, 0x40, 0x76, 0xe9, 0x96,
  0xf2, 0xac, 0x54, 0xcf, 0x8c, 0xa4, 0xf1, 0xd2, 0x02, 0x91, 0x21, 0xf7,
  0xe5, 0x4c, 0xc1, 0x60, 0xe7, 0xb6, 0x65, 0xb1, 0x10, 0xc6, 0x22, 0x37,
  0x84, 0x32, 0x0c, 0x89, 0x5b, 0xcf, 0xd9, 0x90, 0x94, 0x41, 0xd9, 0x95,
  0xa6, 0xf4, 0xb7, 0xfc, 0x8d, 0x8b, 0x8e, 0x33, 0xec, 0xbb, 0xc4, 0x8d,
  0xe6, 0x91, 0x60, 0x94, 0x0f, 0x70, 0x19, 0x4d, 0x1d, 0xb8, 0xb5, 0xcc,
  0xb9, 0x92, 0xdf, 0x74, 0xc8, 0x5b, 0x5d, 0x4e, 0x6d, 0x1c, 0x65, 0x8a,
  0xe9, 0x05, 0x43, 0x0c, 0x08, 0xc5, 0xe8, 0x61, 0x9c, 0xdf, 0x8b, 0xea,
  0x5c, 0x03, 0xff, 0xe5, 0x09, 0x07, 0xf5, 0xb0, 0x09, 0x38, 0x29, 0xf5,
  0x84, 0xa2, 0xb8, 0x12, 0x1e, 0xa3, 0xf5, 0xee, 0xf6, 0x07, 0x63, 0x1d,
  0x77, 0x91, 0xb6, 0x8d, 0x48, 0xe9, 0xcf, 0xeb, 0x8c, 0x2d, 0xeb, 0xff,
  0x11, 0xaa, 0x70, 0x3b, 0xb0, 0x0c, 0xa5, 0x2e, 0xcf, 0xac, 0x01, 0xe9,
  0xad, 0xa2, 0x5e, 0xa2, 0x40, 0x88, 0xf8, 0x0d, 0xf3, 0xa2, 0xb8, 0xe8,
  0x4e, 0xdc, 0xd5, 0x62, 0x72, 0x70, 0x6c, 0x33, 0x71, 0xf4, 0xf5, 0x8c,
  0xc6, 0x0c, 0xf2, 0x52, 0xee, 0xa8, 0x85, 0xf4, 0xa3, 0x64, 0x50, 0xe4,
  0x56, 0xd5, 0x1a, 0x45, 0x2c, 0xe5, 0x07, 0xe4, 0xd8, 0xd5, 0x13, 0x72,
  0x13, 0x19, 0x01, 0xe2, 0x85, 0x3c, 0x03, 0xdc, 0x14, 0x60, 0x53, 0x60,
  0x86, 0xcf, 0xfb, 0x57, 0x9f, 0x00, 0x87, 0x69, 0x04, 0xc5, 0x58, 0x64,
  0xcb, 0xef, 0x52, 0xb5, 0xee, 0xfe, 0xff, 0xff, 0x04, 0x00, 0x00, 0x00,
  0x20, 0x00, 0x00, 0x00, 0x64, 0xfb, 0xff, 0xff, 0x91, 0xeb, 0xff, 0xff,
  0x67, 0x02, 0x00, 0x00, 0x0e, 0xf1, 0xff, 0xff, 0xbc, 0x08, 0x00, 0x00,
  0xa2, 0xfd, 0xff, 0xff, 0x9c, 0xfc, 0xff, 0xff, 0x9b, 0xfa, 0xff, 0xff,
  0x1a, 0xff, 0xff, 0xff, 0x04, 0x00, 0x00, 0x00, 0x18, 0x00, 0x00, 0x00,
  0xbf, 0xf6, 0xe9, 0x7f, 0x45, 0xe8, 0x77, 0x24, 0x79, 0xdd, 0x81, 0xd7,
  0x1f, 0x88, 0x6a, 0x9b, 0x7f, 0x86, 0x53, 0xa4, 0xbd, 0x62, 0xdb, 0xe4,
  0x3e, 0xff, 0xff, 0xff, 0x04, 0x00, 0x00, 0x00, 0x0c, 0x00, 0x00, 0x00,
  0xe6, 0x01, 0x00, 0x00, 0x9d, 0xff, 0xff, 0xff, 0xe6, 0xfe, 0xff, 0xff,
  0x56, 0xff, 0xff, 0xff, 0x04, 0x00, 0x00, 0x00, 0x08, 0x00, 0x00, 0x00,
  0xff, 0xff, 0xff, 0xff, 0x20, 0x01, 0x00, 0x00, 0xe0, 0xf2, 0xff, 0xff,
  0xe4, 0xf2, 0xff, 0xff, 0x0f, 0x00, 0x00, 0x00, 0x4d, 0x4c, 0x49, 0x52,
  0x20, 0x43, 0x6f, 0x6e, 0x76, 0x65, 0x72, 0x74, 0x65, 0x64, 0x2e, 0x00,
  0x01, 0x00, 0x00, 0x00, 0x14, 0x00, 0x00, 0x00, 0x00, 0x00, 0x0e, 0x00,
  0x18, 0x00, 0x14, 0x00, 0x10, 0x00, 0x0c, 0x00, 0x08, 0x00, 0x04, 0x00,
  0x0e, 0x00, 0x00, 0x00, 0x14, 0x00, 0x00, 0x00, 0x1c, 0x00, 0x00, 0x00,
  0x54, 0x02, 0x00, 0x00, 0x58, 0x02, 0x00, 0x00, 0x5c, 0x02, 0x00, 0x00,
  0x04, 0x00, 0x00, 0x00, 0x6d, 0x61, 0x69, 0x6e, 0x00, 0x00, 0x00, 0x00,
  0x08, 0x00, 0x00, 0x00, 0xec, 0x01, 0x00, 0x00, 0x88, 0x01, 0x00, 0x00,
  0x34, 0x01, 0x00, 0x00, 0xf0, 0x00, 0x00, 0x00, 0xc8, 0x00, 0x00, 0x00,
  0x78, 0x00, 0x00, 0x00, 0x40, 0x00, 0x00, 0x00, 0x04, 0x00, 0x00, 0x00,
  0xa2, 0xfe, 0xff, 0xff, 0x1c, 0x00, 0x00, 0x00, 0x00, 0x00, 0x00, 0x09,
  0x1c, 0x00, 0x00, 0x00, 0x20, 0x00, 0x00, 0x00, 0x04, 0x00, 0x00, 0x00,
  0x00, 0x00, 0x06, 0x00, 0x08, 0x00, 0x04, 0x00, 0x06, 0x00, 0x00, 0x00,
  0x00, 0x00, 0x80, 0x3f, 0x01, 0x00, 0x00, 0x00, 0x11, 0x00, 0x00, 0x00,
  0x01, 0x00, 0x00, 0x00, 0x10, 0x00, 0x00, 0x00, 0xda, 0xfe, 0xff, 0xff,
  0x14, 0x00, 0x00, 0x00, 0x00, 0x00, 0x00, 0x08, 0x10, 0x00, 0x00, 0x00,
  0x14, 0x00, 0x00, 0x00, 0x03, 0x00, 0x00, 0x00, 0xac, 0xf3, 0xff, 0xff,
  0x01, 0x00, 0x00, 0x00, 0x10, 0x00, 0x00, 0x00, 0x03, 0x00, 0x00, 0x00,
  0x0f, 0x00, 0x00, 0x00, 0x03, 0x00, 0x00, 0x00, 0x02, 0x00, 0x00, 0x00,
  0x0e, 0xff, 0xff, 0xff, 0x1c, 0x00, 0x00, 0x00, 0x00, 0x00, 0x00, 0x08,
  0x1c, 0x00, 0x00, 0x00, 0x20, 0x00, 0x00, 0x00, 0x03, 0x00, 0x00, 0x00,
  0x00, 0x00, 0x06, 0x00, 0x08, 0x00, 0x07, 0x00, 0x06, 0x00, 0x00, 0x00,
  0x00, 0x00, 0x00, 0x01, 0x01, 0x00, 0x00, 0x00, 0x0f, 0x00, 0x00, 0x00,
  0x03, 0x00, 0x00, 0x00, 0x0e, 0x00, 0x00, 0x00, 0x05, 0x00, 0x00, 0x00,
  0x04, 0x00, 0x00, 0x00, 0x00, 0x00, 0x0a, 0x00, 0x10, 0x00, 0x0c, 0x00,
  0x08, 0x00, 0x04, 0x00, 0x0a, 0x00, 0x00, 0x00, 0x0c, 0x00, 0x00, 0x00,
  0x10, 0x00, 0x00, 0x00, 0x02, 0x00, 0x00, 0x00, 0x01, 0x00, 0x00, 0x00,
  0x0e, 0x00, 0x00, 0x00, 0x02, 0x00, 0x00, 0x00, 0x0d, 0x00, 0x00, 0x00,
  0x01, 0x00, 0x00, 0x00, 0x7e, 0xff, 0xff, 0xff, 0x14, 0x00, 0x00, 0x00,
  0x00, 0x00, 0x00, 0x05, 0x24, 0x00, 0x00, 0x00, 0x28, 0x00, 0x00, 0x00,
  0x01, 0x00, 0x00, 0x00, 0x6e, 0xff, 0xff, 0xff, 0x02, 0x00, 0x00, 0x00,
  0x02, 0x00, 0x00, 0x00, 0x02, 0x00, 0x00, 0x00, 0x02, 0x00, 0x00, 0x00,
  0x00, 0x00, 0x00, 0x01, 0x01, 0x00, 0x00, 0x00, 0x0d, 0x00, 0x00, 0x00,
  0x01, 0x00, 0x00, 0x00, 0x0c, 0x00, 0x00, 0x00, 0x5e, 0xff, 0xff, 0xff,
  0x10, 0x00, 0x00, 0x00, 0x00, 0x00, 0x00, 0x01, 0x1c, 0x00, 0x00, 0x00,
  0x20, 0x00, 0x00, 0x00, 0x50, 0xff, 0xff, 0xff, 0x00, 0x00, 0x00, 0x01,
  0x01, 0x00, 0x00, 0x00, 0x01, 0x00, 0x00, 0x00, 0x00, 0x00, 0x00, 0x01,
  0x01, 0x00, 0x00, 0x00, 0x0c, 0x00, 0x00, 0x00, 0x03, 0x00, 0x00, 0x00,
  0x0b, 0x00, 0x00, 0x00, 0x07, 0x00, 0x00, 0x00, 0x06, 0x00, 0x00, 0x00,
  0x00, 0x00, 0x0e, 0x00, 0x1a, 0x00, 0x14, 0x00, 0x10, 0x00, 0x0c, 0x00,
  0x0b, 0x00, 0x04, 0x00, 0x0e, 0x00, 0x00, 0x00, 0x24, 0x00, 0x00, 0x00,
  0x00, 0x00, 0x00, 0x05, 0x34, 0x00, 0x00, 0x00, 0x38, 0x00, 0x00, 0x00,
  0x01, 0x00, 0x00, 0x00, 0x00, 0x00, 0x0e, 0x00, 0x18, 0x00, 0x17, 0x00,
  0x10, 0x00, 0x0c, 0x00, 0x08, 0x00, 0x04, 0x00, 0x0e, 0x00, 0x00, 0x00,
  0x02, 0x00, 0x00, 0x00, 0x02, 0x00, 0x00, 0x00, 0x02, 0x00, 0x00, 0x00,
  0x02, 0x00, 0x00, 0x00, 0x00, 0x00, 0x00, 0x01, 0x01, 0x00, 0x00, 0x00,
  0x0b, 0x00, 0x00, 0x00, 0x01, 0x00, 0x00, 0x00, 0x0a, 0x00, 0x00, 0x00,
  0x00, 0x00, 0x0e, 0x00, 0x14, 0x00, 0x00, 0x00, 0x10, 0x00, 0x0c, 0x00,
  0x0b, 0x00, 0x04, 0x00, 0x0e, 0x00, 0x00, 0x00, 0x1c, 0x00, 0x00, 0x00,
  0x00, 0x00, 0x00, 0x01, 0x28, 0x00, 0x00, 0x00, 0x2c, 0x00, 0x00, 0x00,
  0x0c, 0x00, 0x14, 0x00, 0x13, 0x00, 0x0c, 0x00, 0x08, 0x00, 0x07, 0x00,
  0x0c, 0x00, 0x00, 0x00, 0x00, 0x00, 0x00, 0x01, 0x01, 0x00, 0x00, 0x00,
  0x01, 0x00, 0x00, 0x00, 0x00, 0x00, 0x00, 0x01, 0x01, 0x00, 0x00, 0x00,
  0x0a, 0x00, 0x00, 0x00, 0x03, 0x00, 0x00, 0x00, 0x00, 0x00, 0x00, 0x00,
  0x09, 0x00, 0x00, 0x00, 0x08, 0x00, 0x00, 0x00, 0x01, 0x00, 0x00, 0x00,
  0x11, 0x00, 0x00, 0x00, 0x01, 0x00, 0x00, 0x00, 0x00, 0x00, 0x00, 0x00,
  0x12, 0x00, 0x00, 0x00, 0xb4, 0x0a, 0x00, 0x00, 0x58, 0x0a, 0x00, 0x00,
  0xc8, 0x09, 0x00, 0x00, 0x4c, 0x09, 0x00, 0x00, 0x98, 0x08, 0x00, 0x00,
  0xdc, 0x07, 0x00, 0x00, 0x28, 0x07, 0x00, 0x00, 0x64, 0x06, 0x00, 0x00,
  0xe0, 0x05, 0x00, 0x00, 0x4c, 0x05, 0x00, 0x00, 0x58, 0x04, 0x00, 0x00,
  0xbc, 0x03, 0x00, 0x00, 0xf0, 0x02, 0x00, 0x00, 0x54, 0x02, 0x00, 0x00,
  0xd0, 0x01, 0x00, 0x00, 0x1c, 0x01, 0x00, 0x00, 0x80, 0x00, 0x00, 0x00,
  0x04, 0x00, 0x00, 0x00, 0xaa, 0xf5, 0xff, 0xff, 0x00, 0x00, 0x00, 0x01,
  0x18, 0x00, 0x00, 0x00, 0x20, 0x00, 0x00, 0x00, 0x3c, 0x00, 0x00, 0x00,
  0x12, 0x00, 0x00, 0x00, 0x00, 0x00, 0x00, 0x09, 0x50, 0x00, 0x00, 0x00,
  0x02, 0x00, 0x00, 0x00, 0xff, 0xff, 0xff, 0xff, 0x03, 0x00, 0x00, 0x00,
  0x8c, 0xf5, 0xff, 0xff, 0x08, 0x00, 0x00, 0x00, 0x10, 0x00, 0x00, 0x00,
  0x01, 0x00, 0x00, 0x00, 0x80, 0xff, 0xff, 0xff, 0xff, 0xff, 0xff, 0xff,
  0x01, 0x00, 0x00, 0x00, 0x00, 0x00, 0x80, 0x3b, 0x19, 0x00, 0x00, 0x00,
  0x53, 0x74, 0x61, 0x74, 0x65, 0x66, 0x75, 0x6c, 0x50, 0x61, 0x72, 0x74,
  0x69, 0x74, 0x69, 0x6f, 0x6e, 0x65, 0x64, 0x43, 0x61, 0x6c, 0x6c, 0x3a,
  0x30, 0x00, 0x00, 0x00, 0x02, 0x00, 0x00, 0x00, 0x01, 0x00, 0x00, 0x00,
  0x03, 0x00, 0x00, 0x00, 0x22, 0xf6, 0xff, 0xff, 0x00, 0x00, 0x00, 0x01,
  0x18, 0x00, 0x00, 0x00, 0x20, 0x00, 0x00, 0x00, 0x3c, 0x00, 0x00, 0x00,
  0x11, 0x00, 0x00, 0x00, 0x00, 0x00, 0x00, 0x09, 0x70, 0x00, 0x00, 0x00,
  0x02, 0x00, 0x00, 0x00, 0xff, 0xff, 0xff, 0xff, 0x03, 0x00, 0x00, 0x00,
  0x04, 0xf6, 0xff, 0xff, 0x08, 0x00, 0x00, 0x00, 0x10, 0x00, 0x00, 0x00,
  0x01, 0x00, 0x00, 0x00, 0x9e, 0xff, 0xff, 0xff, 0xff, 0xff, 0xff, 0xff,
  0x01, 0x00, 0x00, 0x00, 0x4b, 0x73, 0x6c, 0x3c, 0x38, 0x00, 0x00, 0x00,
  0x73, 0x65, 0x71, 0x75, 0x65, 0x6e, 0x74, 0x69, 0x61, 0x6c, 0x5f, 0x31,
  0x2f, 0x64, 0x65, 0x6e, 0x73, 0x65, 0x5f, 0x33, 0x2f, 0x4d, 0x61, 0x74,
  0x4d, 0x75, 0x6c, 0x3b, 0x73, 0x65, 0x71, 0x75, 0x65, 0x6e, 0x74, 0x69,
  0x61, 0x6c, 0x5f, 0x31, 0x2f, 0x64, 0x65, 0x6e, 0x73, 0x65, 0x5f, 0x33,
  0x2f, 0x42, 0x69, 0x61, 0x73, 0x41, 0x64, 0x64, 0x00, 0x00, 0x00, 0x00,
  0x02, 0x00, 0x00, 0x00, 0x01, 0x00, 0x00, 0x00, 0x03, 0x00, 0x00, 0x00,
  0xba, 0xf6, 0xff, 0xff, 0x00, 0x00, 0x00, 0x01, 0x18, 0x00, 0x00, 0x00,
  0x20, 0x00, 0x00, 0x00, 0x3c, 0x00, 0x00, 0x00, 0x10, 0x00, 0x00, 0x00,
  0x00, 0x00, 0x00, 0x09, 0x88, 0x00, 0x00, 0x00, 0x02, 0x00, 0x00, 0x00,
  0xff, 0xff, 0xff, 0xff, 0x08, 0x00, 0x00, 0x00, 0x9c, 0xf6, 0xff, 0xff,
  0x08, 0x00, 0x00, 0x00, 0x10, 0x00, 0x00, 0x00, 0x01, 0x00, 0x00, 0x00,
  0x80, 0xff, 0xff, 0xff, 0xff, 0xff, 0xff, 0xff, 0x01, 0x00, 0x00, 0x00,
  0x7f, 0x77, 0x70, 0x3c, 0x52, 0x00, 0x00, 0x00, 0x73, 0x65, 0x71, 0x75,
  0x65, 0x6e, 0x74, 0x69, 0x61, 0x6c, 0x5f, 0x31, 0x2f, 0x64, 0x65, 0x6e,
  0x73, 0x65, 0x5f, 0x32, 0x2f, 0x4d, 0x61, 0x74, 0x4d, 0x75, 0x6c, 0x3b,
  0x73, 0x65, 0x71, 0x75, 0x65, 0x6e, 0x74, 0x69, 0x61, 0x6c, 0x5f, 0x31,
  0x2f, 0x64, 0x65, 0x6e, 0x73, 0x65, 0x5f, 0x32, 0x2f, 0x52, 0x65, 0x6c,
  0x75, 0x3b, 0x73, 0x65, 0x71, 0x75, 0x65, 0x6e, 0x74, 0x69, 0x61, 0x6c,
  0x5f, 0x31, 0x2f, 0x64, 0x65, 0x6e, 0x73, 0x65, 0x5f, 0x32, 0x2f, 0x42,
  0x69, 0x61, 0x73, 0x41, 0x64, 0x64, 0x00, 0x00, 0x02, 0x00, 0x00, 0x00,
  0x01, 0x00, 0x00, 0x00, 0x08, 0x00, 0x00, 0x00, 0x6a, 0xf7, 0xff, 0xff,
  0x00, 0x00, 0x00, 0x01, 0x18, 0x00, 0x00, 0x00, 0x20, 0x00, 0x00, 0x00,
  0x40, 0x00, 0x00, 0x00, 0x0f, 0x00, 0x00, 0x00, 0x00, 0x00, 0x00, 0x09,
  0x58, 0x00, 0x00, 0x00, 0x02, 0x00, 0x00, 0x00, 0xff, 0xff, 0xff, 0xff,
  0x20, 0x01, 0x00, 0x00, 0x4c, 0xf7, 0xff, 0xff, 0x08, 0x00, 0x00, 0x00,
  0x14, 0x00, 0x00, 0x00, 0x01, 0x00, 0x00, 0x00, 0x80, 0xff, 0xff, 0xff,
  0xff, 0xff, 0xff, 0xff, 0x00, 0x00, 0x00, 0x00, 0x01, 0x00, 0x00, 0x00,
  0x3f, 0x5b, 0x57, 0x3b, 0x1e, 0x00, 0x00, 0x00, 0x73, 0x65, 0x71, 0x75,
  0x65, 0x6e, 0x74, 0x69, 0x61, 0x6c, 0x5f, 0x31, 0x2f, 0x66, 0x6c, 0x61,
  0x74, 0x74, 0x65, 0x6e, 0x5f, 0x31, 0x2f, 0x52, 0x65, 0x73, 0x68, 0x61,
  0x70, 0x65, 0x00, 0x00, 0x02, 0x00, 0x00, 0x00, 0x01, 0x00, 0x00, 0x00,
  0x20, 0x01, 0x00, 0x00, 0xea, 0xf7, 0xff, 0xff, 0x00, 0x00, 0x00, 0x01,
  0x18, 0x00, 0x00, 0x00, 0x28, 0x00, 0x00, 0x00, 0x48, 0x00, 0x00, 0x00,
  0x0e, 0x00, 0x00, 0x00, 0x00, 0x00, 0x00, 0x09, 0x68, 0x00, 0x00, 0x00,
  0x04, 0x00, 0x00, 0x00, 0xff, 0xff, 0xff, 0xff, 0x06, 0x00, 0x00, 0x00,
  0x06, 0x00, 0x00, 0x00, 0x08, 0x00, 0x00, 0x00, 0xd4, 0xf7, 0xff, 0xff,
  0x08, 0x00, 0x00, 0x00, 0x14, 0x00, 0x00, 0x00, 0x01, 0x00, 0x00, 0x00,
  0x80, 0xff, 0xff, 0xff, 0xff, 0xff, 0xff, 0xff, 0x00, 0x00, 0x00, 0x00,
  0x01, 0x00, 0x00, 0x00, 0x3f, 0x5b, 0x57, 0x3b, 0x24, 0x00, 0x00, 0x00,
  0x73, 0x65, 0x71, 0x75, 0x65, 0x6e, 0x74, 0x69, 0x61, 0x6c, 0x5f, 0x31,
  0x2f, 0x6d, 0x61, 0x78, 0x5f, 0x70, 0x6f, 0x6f, 0x6c, 0x69, 0x6e, 0x67,
  0x32, 0x64, 0x5f, 0x34, 0x2f, 0x4d, 0x61, 0x78, 0x50, 0x6f, 0x6f, 0x6c,
  0x00, 0x00, 0x00, 0x00, 0x04, 0x00, 0x00, 0x00, 0x01, 0x00, 0x00, 0x00,
  0x06, 0x00, 0x00, 0x00, 0x06, 0x00, 0x00, 0x00, 0x08, 0x00, 0x00, 0x00,
  0x82, 0xf8, 0xff, 0xff, 0x00, 0x00, 0x00, 0x01, 0x18, 0x00, 0x00, 0x00,
  0x28, 0x00, 0x00, 0x00, 0x48, 0x00, 0x00, 0x00, 0x0d, 0x00, 0x00, 0x00,
  0x00, 0x00, 0x00, 0x09, 0x98, 0x00, 0x00, 0x00, 0x04, 0x00, 0x00, 0x00,
  0xff, 0xff, 0xff, 0xff, 0x0d, 0x00, 0x00, 0x00, 0x0d, 0x00, 0x00, 0x00,
  0x08, 0x00, 0x00, 0x00, 0x6c, 0xf8, 0xff, 0xff, 0x08, 0x00, 0x00, 0x00,
  0x14, 0x00, 0x00, 0x00, 0x01, 0x00, 0x00, 0x00, 0x80, 0xff, 0xff, 0xff,
  0xff, 0xff, 0xff, 0xff, 0x00, 0x00, 0x00, 0x00, 0x01, 0x00, 0x00, 0x00,
  0x3f, 0x5b, 0x57, 0x3b, 0x56, 0x00, 0x00, 0x00, 0x73, 0x65, 0x71, 0x75,
  0x65, 0x6e, 0x74, 0x69, 0x61, 0x6c, 0x5f, 0x31, 0x2f, 0x63, 0x6f, 0x6e,
  0x76, 0x32, 0x64, 0x5f, 0x34, 0x2f, 0x52, 0x65, 0x6c, 0x75, 0x3b, 0x73,
  0x65, 0x71, 0x75, 0x65, 0x6e, 0x74, 0x69, 0x61, 0x6c, 0x5f, 0x31, 0x2f,
  0x63, 0x6f, 0x6e, 0x76, 0x32, 0x64, 0x5f, 0x34, 0x2f, 0x42, 0x69, 0x61,
  0x73, 0x41, 0x64, 0x64, 0x3b, 0x73, 0x65, 0x71, 0x75, 0x65, 0x6e, 0x74,
  0x69, 0x61, 0x6c, 0x5f, 0x31, 0x2f, 0x63, 0x6f, 0x6e, 0x76, 0x32, 0x64,
  0x5f, 0x34, 0x2f, 0x43, 0x6f, 0x6e, 0x76, 0x32, 0x44, 0x3b, 0x00, 0x00,
  0x04, 0x00, 0x00, 0x00, 0x01, 0x00, 0x00, 0x00, 0x0d, 0x00, 0x00, 0x00,
  0x0d, 0x00, 0x00, 0x00, 0x08, 0x00, 0x00, 0x00, 0x4a, 0xf9, 0xff, 0xff,
  0x00, 0x00, 0x00, 0x01, 0x18, 0x00, 0x00, 0x00, 0x28, 0x00, 0x00, 0x00,
  0x48, 0x00, 0x00, 0x00, 0x0c, 0x00, 0x00, 0x00, 0x00, 0x00, 0x00, 0x09,
  0x68, 0x00, 0x00, 0x00, 0x04, 0x00, 0x00, 0x00, 0xff, 0xff, 0xff, 0xff,
  0x0f, 0x00, 0x00, 0x00, 0x0f, 0x00, 0x00, 0x00, 0x04, 0x00, 0x00, 0x00,
  0x34, 0xf9, 0xff, 0xff, 0x08, 0x00, 0x00, 0x00, 0x14, 0x00, 0x00, 0x00,
  0x01, 0x00, 0x00, 0x00, 0x80, 0xff, 0xff, 0xff, 0xff, 0xff, 0xff, 0xff,
  0x00, 0x00, 0x00, 0x00, 0x01, 0x00, 0x00, 0x00, 0x82, 0x8a, 0x22, 0x3a,
  0x24, 0x00, 0x00, 0x00, 0x73, 0x65, 0x71, 0x75, 0x65, 0x6e, 0x74, 0x69,
  0x61, 0x6c, 0x5f, 0x31, 0x2f, 0x6d, 0x61, 0x78, 0x5f, 0x70, 0x6f, 0x6f,
  0x6c, 0x69, 0x6e, 0x67, 0x32, 0x64, 0x5f, 0x33, 0x2f, 0x4d, 0x61, 0x78,
  0x50, 0x6f, 0x6f, 0x6c, 0x00, 0x00, 0x00, 0x00, 0x04, 0x00, 0x00, 0x00,
  0x01, 0x00, 0x00, 0x00, 0x0f, 0x00, 0x00, 0x00, 0x0f, 0x00, 0x00, 0x00,
  0x04, 0x00, 0x00, 0x00, 0xe2, 0xf9, 0xff, 0xff, 0x00, 0x00, 0x00, 0x01,
  0x18, 0x00, 0x00, 0x00, 0x28, 0x00, 0x00, 0x00, 0x44, 0x00, 0x00, 0x00,
  0x0b, 0x00, 0x00, 0x00, 0x00, 0x00, 0x00, 0x09, 0xc0, 0x00, 0x00, 0x00,
  0x04, 0x00, 0x00, 0x00, 0xff, 0xff, 0xff, 0xff, 0x1e, 0x00, 0x00, 0x00,
  0x1e, 0x00, 0x00, 0x00, 0x04, 0x00, 0x00, 0x00, 0xcc, 0xf9, 0xff, 0xff,
  0x08, 0x00, 0x00, 0x00, 0x10, 0x00, 0x00, 0x00, 0x01, 0x00, 0x00, 0x00,
  0x80, 0xff, 0xff, 0xff, 0xff, 0xff, 0xff, 0xff, 0x01, 0x00, 0x00, 0x00,
  0x82, 0x8a, 0x22, 0x3a, 0x83, 0x00, 0x00, 0x00, 0x73, 0x65, 0x71, 0x75,
  0x65, 0x6e, 0x74, 0x69, 0x61, 0x6c, 0x5f, 0x31, 0x2f, 0x63, 0x6f, 0x6e,
  0x76, 0x32, 0x64, 0x5f, 0x33, 0x2f, 0x52, 0x65, 0x6c, 0x75, 0x3b, 0x73,
  0x65, 0x71, 0x75, 0x65, 0x6e, 0x74, 0x69, 0x61, 0x6c, 0x5f, 0x31, 0x2f,
  0x63, 0x6f, 0x6e, 0x76, 0x32, 0x64, 0x5f, 0x33, 0x2f, 0x42, 0x69, 0x61,
  0x73, 0x41, 0x64, 0x64, 0x3b, 0x73, 0x65, 0x71, 0x75, 0x65, 0x6e, 0x74,
  0x69, 0x61, 0x6c, 0x5f, 0x31, 0x2f, 0x63, 0x6f, 0x6e, 0x76, 0x32, 0x64,
  0x5f, 0x33, 0x2f, 0x43, 0x6f, 0x6e, 0x76, 0x32, 0x44, 0x3b, 0x73, 0x65,
  0x71, 0x75, 0x65, 0x6e, 0x74, 0x69, 0x61, 0x6c, 0x5f, 0x31, 0x2f, 0x63,
  0x6f, 0x6e, 0x76, 0x32, 0x64, 0x5f, 0x33, 0x2f, 0x42, 0x69, 0x61, 0x73,
  0x41, 0x64, 0x64, 0x2f, 0x52, 0x65, 0x61, 0x64, 0x56, 0x61, 0x72, 0x69,
  0x61, 0x62, 0x6c, 0x65, 0x4f, 0x70, 0x31, 0x00, 0x04, 0x00, 0x00, 0x00,
  0x01, 0x00, 0x00, 0x00, 0x1e, 0x00, 0x00, 0x00, 0x1e, 0x00, 0x00, 0x00,
  0x04, 0x00, 0x00, 0x00, 0x2a, 0xfb, 0xff, 0xff, 0x00, 0x00, 0x00, 0x01,
  0x14, 0x00, 0x00, 0x00, 0x58, 0x00, 0x00, 0x00, 0x0a, 0x00, 0x00, 0x00,
  0x00, 0x00, 0x00, 0x09, 0x64, 0x00, 0x00, 0x00, 0xa4, 0xfa, 0xff, 0xff,
  0x08, 0x00, 0x00, 0x00, 0x2c, 0x00, 0x00, 0x00, 0x04, 0x00, 0x00, 0x00,
  0x00, 0x00, 0x00, 0x00, 0x00, 0x00, 0x00, 0x00, 0x00, 0x00, 0x00, 0x00,
  0x00, 0x00, 0x00, 0x00, 0x00, 0x00, 0x00, 0x00, 0x00, 0x00, 0x00, 0x00,
  0x00, 0x00, 0x00, 0x00, 0x00, 0x00, 0x00, 0x00, 0x00, 0x00, 0x00, 0x00,
  0x04, 0x00, 0x00, 0x00, 0x85, 0x3e, 0xb8, 0x3b, 0x2f, 0x8b, 0x89, 0x3b,
  0x8f, 0xbd, 0x31, 0x3b, 0x5a, 0x8b, 0x89, 0x3b, 0x12, 0x00, 0x00, 0x00,
  0x74, 0x66, 0x6c, 0x2e, 0x70, 0x73, 0x65, 0x75, 0x64, 0x6f, 0x5f, 0x71,
  0x63, 0x6f, 0x6e, 0x73, 0x74, 0x37, 0x00, 0x00, 0x04, 0x00, 0x00, 0x00,
  0x04, 0x00, 0x00, 0x00, 0x03, 0x00, 0x00, 0x00, 0x03, 0x00, 0x00, 0x00,
  0x01, 0x00, 0x00, 0x00, 0xba, 0xfb, 0xff, 0xff, 0x00, 0x00, 0x00, 0x01,
  0x14, 0x00, 0x00, 0x00, 0x54, 0x00, 0x00, 0x00, 0x09, 0x00, 0x00, 0x00,
  0x00, 0x00, 0x00, 0x02, 0x60, 0x00, 0x00, 0x00, 0x34, 0xfb, 0xff, 0xff,
  0x08, 0x00, 0x00, 0x00, 0x28, 0x00, 0x00, 0x00, 0x04, 0x00, 0x00, 0x00,
  0x00, 0x00, 0x00, 0x00, 0x00, 0x00, 0x00, 0x00, 0x00, 0x00, 0x00, 0x00,
  0x00, 0x00, 0x00, 0x00, 0x00, 0x00, 0x00, 0x00, 0x00, 0x00, 0x00, 0x00,
  0x00, 0x00, 0x00, 0x00, 0x00, 0x00, 0x00, 0x00, 0x04, 0x00, 0x00, 0x00,
  0x6d, 0xac, 0xb9, 0x33, 0x58, 0x9c, 0x8a, 0x33, 0x8d, 0x1e, 0x33, 0x33,
  0x83, 0x9c, 0x8a, 0x33, 0x12, 0x00, 0x00, 0x00, 0x74, 0x66, 0x6c, 0x2e,
  0x70, 0x73, 0x65, 0x75, 0x64, 0x6f, 0x5f, 0x71, 0x63, 0x6f, 0x6e, 0x73,
  0x74, 0x36, 0x00, 0x00, 0x01, 0x00, 0x00, 0x00, 0x04, 0x00, 0x00, 0x00,
  0x3a, 0xfc, 0xff, 0xff, 0x00, 0x00, 0x00, 0x01, 0x14, 0x00, 0x00, 0x00,
  0x88, 0x00, 0x00, 0x00, 0x08, 0x00, 0x00, 0x00, 0x00, 0x00, 0x00, 0x09,
  0x94, 0x00, 0x00, 0x00, 0xb4, 0xfb, 0xff, 0xff, 0x08, 0x00, 0x00, 0x00,
  0x4c, 0x00, 0x00, 0x00, 0x08, 0x00, 0x00, 0x00, 0x00, 0x00, 0x00, 0x00,
  0x00, 0x00, 0x00, 0x00, 0x00, 0x00, 0x00, 0x00, 0x00, 0x00, 0x00, 0x00,
  0x00, 0x00, 0x00, 0x00, 0x00, 0x00, 0x00, 0x00, 0x00, 0x00, 0x00, 0x00,
  0x00, 0x00, 0x00, 0x00, 0x00, 0x00, 0x00, 0x00, 0x00, 0x00, 0x00, 0x00,
  0x00, 0x00, 0x00, 0x00, 0x00, 0x00, 0x00, 0x00, 0x00, 0x00, 0x00, 0x00,
  0x00, 0x00, 0x00, 0x00, 0x00, 0x00, 0x00, 0x00, 0x00, 0x00, 0x00, 0x00,
  0x00, 0x00, 0x00, 0x00, 0x08, 0x00, 0x00, 0x00, 0xd6, 0x1a, 0x51, 0x3b,
  0x5e, 0x0c, 0x42, 0x3b, 0x16, 0xbe, 0xf2, 0x3a, 0xd4, 0xd9, 0x4c, 0x3b,
  0xd1, 0xe5, 0xa5, 0x3b, 0x47, 0x67, 0x8f, 0x3b, 0xdd, 0x5a, 0x8a, 0x3b,
  0x08, 0x09, 0xa6, 0x3b, 0x12, 0x00, 0x00, 0x00, 0x74, 0x66, 0x6c, 0x2e,
  0x70, 0x73, 0x65, 0x75, 0x64, 0x6f, 0x5f, 0x71, 0x63, 0x6f, 0x6e, 0x73,
  0x74, 0x35, 0x00, 0x00, 0x04, 0x00, 0x00, 0x00, 0x08, 0x00, 0x00, 0x00,
  0x03, 0x00, 0x00, 0x00, 0x03, 0x00, 0x00, 0x00, 0x04, 0x00, 0x00, 0x00,
  0xfa, 0xfc, 0xff, 0xff, 0x00, 0x00, 0x00, 0x01, 0x14, 0x00, 0x00, 0x00,
  0x84, 0x00, 0x00, 0x00, 0x07, 0x00, 0x00, 0x00, 0x00, 0x00, 0x00, 0x02,
  0x90, 0x00, 0x00, 0x00, 0x74, 0xfc, 0xff, 0xff, 0x08, 0x00, 0x00, 0x00,
  0x48, 0x00, 0x00, 0x00, 0x08, 0x00, 0x00, 0x00, 0x00, 0x00, 0x00, 0x00,
  0x00, 0x00, 0x00, 0x00, 0x00, 0x00, 0x00, 0x00, 0x00, 0x00, 0x00, 0x00,
  0x00, 0x00, 0x00, 0x00, 0x00, 0x00, 0x00, 0x00, 0x00, 0x00, 0x00, 0x00,
  0x00, 0x00, 0x00, 0x00, 0x00, 0x00, 0x00, 0x00, 0x00, 0x00, 0x00, 0x00,
  0x00, 0x00, 0x00, 0x00, 0x00, 0x00, 0x00, 0x00, 0x00, 0x00, 0x00, 0x00,
  0x00, 0x00, 0x00, 0x00, 0x00, 0x00, 0x00, 0x00, 0x00, 0x00, 0x00, 0x00,
  0x08, 0x00, 0x00, 0x00, 0x1e, 0xc4, 0x04, 0x36, 0xa1, 0x69, 0xf6, 0x35,
  0xa0, 0x1f, 0x9a, 0x35, 0xae, 0x10, 0x02, 0x36, 0x61, 0xaa, 0x52, 0x36,
  0xe3, 0x19, 0x36, 0x36, 0xb6, 0xb0, 0x2f, 0x36, 0x18, 0xd7, 0x52, 0x36,
  0x12, 0x00, 0x00, 0x00, 0x74, 0x66, 0x6c, 0x2e, 0x70, 0x73, 0x65, 0x75,
  0x64, 0x6f, 0x5f, 0x71, 0x63, 0x6f, 0x6e, 0x73, 0x74, 0x34, 0x00, 0x00,
  0x01, 0x00, 0x00, 0x00, 0x08, 0x00, 0x00, 0x00, 0xaa, 0xfd, 0xff, 0xff,
  0x00, 0x00, 0x00, 0x01, 0x14, 0x00, 0x00, 0x00, 0x88, 0x00, 0x00, 0x00,
  0x06, 0x00, 0x00, 0x00, 0x00, 0x00, 0x00, 0x09, 0x94, 0x00, 0x00, 0x00,
  0x24, 0xfd, 0xff, 0xff, 0x08, 0x00, 0x00, 0x00, 0x4c, 0x00, 0x00, 0x00,
  0x08, 0x00, 0x00, 0x00, 0x00, 0x00, 0x00, 0x00, 0x00, 0x00, 0x00, 0x00,
  0x00, 0x00, 0x00, 0x00, 0x00, 0x00, 0x00, 0x00, 0x00, 0x00, 0x00, 0x00,
  0x00, 0x00, 0x00, 0x00, 0x00, 0x00, 0x00, 0x00, 0x00, 0x00, 0x00, 0x00,
  0x00, 0x00, 0x00, 0x00, 0x00, 0x00, 0x00, 0x00, 0x00, 0x00, 0x00, 0x00,
  0x00, 0x00, 0x00, 0x00, 0x00, 0x00, 0x00, 0x00, 0x00, 0x00, 0x00, 0x00,
  0x00, 0x00, 0x00, 0x00, 0x00, 0x00, 0x00, 0x00, 0x00, 0x00, 0x00, 0x00,
  0x08, 0x00, 0x00, 0x00, 0x66, 0x21, 0xa7, 0x3b, 0x75, 0x45, 0xa9, 0x3a,
  0x33, 0x86, 0x3b, 0x3b, 0x86, 0x3f, 0xa1, 0x3a, 0xca, 0xb3, 0x7c, 0x3b,
  0x1c, 0x50, 0x50, 0x3b, 0xb9, 0x3b, 0x9e, 0x3a, 0x50, 0xf3, 0x96, 0x3a,
  0x12, 0x00, 0x00, 0x00, 0x74, 0x66, 0x6c, 0x2e, 0x70, 0x73, 0x65, 0x75,
  0x64, 0x6f, 0x5f, 0x71, 0x63, 0x6f, 0x6e, 0x73, 0x74, 0x33, 0x00, 0x00,
  0x02, 0x00, 0x00, 0x00, 0x08, 0x00, 0x00, 0x00, 0x20, 0x01, 0x00, 0x00,
  0x62, 0xfe, 0xff, 0xff, 0x00, 0x00, 0x00, 0x01, 0x14, 0x00, 0x00, 0x00,
  0x84, 0x00, 0x00, 0x00, 0x05, 0x00, 0x00, 0x00, 0x00, 0x00, 0x00, 0x02,
  0x90, 0x00, 0x00, 0x00, 0xdc, 0xfd, 0xff, 0xff, 0x08, 0x00, 0x00, 0x00,
  0x48, 0x00, 0x00, 0x00, 0x08, 0x00, 0x00, 0x00, 0x00, 0x00, 0x00, 0x00,
  0x00, 0x00, 0x00, 0x00, 0x00, 0x00, 0x00, 0x00, 0x00, 0x00, 0x00, 0x00,
  0x00, 0x00, 0x00, 0x00, 0x00, 0x00, 0x00, 0x00, 0x00, 0x00, 0x00, 0x00,
  0x00, 0x00, 0x00, 0x00, 0x00, 0x00, 0x00, 0x00, 0x00, 0x00, 0x00, 0x00,
  0x00, 0x00, 0x00, 0x00, 0x00, 0x00, 0x00, 0x00, 0x00, 0x00, 0x00, 0x00,
  0x00, 0x00, 0x00, 0x00, 0x00, 0x00, 0x00, 0x00, 0x00, 0x00, 0x00, 0x00,
  0x08, 0x00, 0x00, 0x00, 0x9f, 0x98, 0x8c, 0x37, 0xab, 0x65, 0x8e, 0x36,
  0x8c, 0xc0, 0x1d, 0x37, 0xd3, 0xa5, 0x87, 0x36, 0x11, 0x95, 0x54, 0x37,
  0x87, 0x3d, 0x2f, 0x37, 0x8f, 0x1c, 0x85, 0x36, 0x4c, 0xf8, 0x7d, 0x36,
  0x12, 0x00, 0x00, 0x00, 0x74, 0x66, 0x6c, 0x2e, 0x70, 0x73, 0x65, 0x75,
  0x64, 0x6f, 0x5f, 0x71, 0x63, 0x6f, 0x6e, 0x73, 0x74, 0x32, 0x00, 0x00,
  0x01, 0x00, 0x00, 0x00, 0x08, 0x00, 0x00, 0x00, 0x12, 0xff, 0xff, 0xff,
  0x00, 0x00, 0x00, 0x01, 0x14, 0x00, 0x00, 0x00, 0x48, 0x00, 0x00, 0x00,
  0x04, 0x00, 0x00, 0x00, 0x00, 0x00, 0x00, 0x09, 0x54, 0x00, 0x00, 0x00,
  0x8c, 0xfe, 0xff, 0xff, 0x08, 0x00, 0x00, 0x00, 0x20, 0x00, 0x00, 0x00,
  0x03, 0x00, 0x00, 0x00, 0x00, 0x00, 0x00, 0x00, 0x00, 0x00, 0x00, 0x00,
  0x00, 0x00, 0x00, 0x00, 0x00, 0x00, 0x00, 0x00, 0x00, 0x00, 0x00, 0x00,
  0x00, 0x00, 0x00, 0x00, 0x03, 0x00, 0x00, 0x00, 0xca, 0x94, 0xa4, 0x3b,
  0x6b, 0xba, 0xcd, 0x3b, 0x67, 0x8d, 0xc1, 0x3b, 0x12, 0x00, 0x00, 0x00,
  0x74, 0x66, 0x6c, 0x2e, 0x70, 0x73, 0x65, 0x75, 0x64, 0x6f, 0x5f, 0x71,
  0x63, 0x6f, 0x6e, 0x73, 0x74, 0x31, 0x00, 0x00, 0x02, 0x00, 0x00, 0x00,
  0x03, 0x00, 0x00, 0x00, 0x08, 0x00, 0x00, 0x00, 0x8a, 0xff, 0xff, 0xff,
  0x00, 0x00, 0x00, 0x01, 0x14, 0x00, 0x00, 0x00, 0x48, 0x00, 0x00, 0x00,
  0x03, 0x00, 0x00, 0x00, 0x00, 0x00, 0x00, 0x02, 0x54, 0x00, 0x00, 0x00,
  0x04, 0xff, 0xff, 0xff, 0x08, 0x00, 0x00, 0x00, 0x20, 0x00, 0x00, 0x00,
  0x03, 0x00, 0x00, 0x00, 0x00, 0x00, 0x00, 0x00, 0x00, 0x00, 0x00, 0x00,
  0x00, 0x00, 0x00, 0x00, 0x00, 0x00, 0x00, 0x00, 0x00, 0x00, 0x00, 0x00,
  0x00, 0x00, 0x00, 0x00, 0x03, 0x00, 0x00, 0x00, 0x50, 0x98, 0x9a, 0x38,
  0xcc, 0x3e, 0xc1, 0x38, 0xe9, 0xce, 0xb5, 0x38, 0x11, 0x00, 0x00, 0x00,
  0x74, 0x66, 0x6c, 0x2e, 0x70, 0x73, 0x65, 0x75, 0x64, 0x6f, 0x5f, 0x71,
  0x63, 0x6f, 0x6e, 0x73, 0x74, 0x00, 0x00, 0x00, 0x01, 0x00, 0x00, 0x00,
  0x03, 0x00, 0x00, 0x00, 0x00, 0x00, 0x16, 0x00, 0x1c, 0x00, 0x18, 0x00,
  0x17, 0x00, 0x10, 0x00, 0x0c, 0x00, 0x08, 0x00, 0x00, 0x00, 0x00, 0x00,
  0x00, 0x00, 0x07, 0x00, 0x16, 0x00, 0x00, 0x00, 0x00, 0x00, 0x00, 0x01,
  0x18, 0x00, 0x00, 0x00, 0x18, 0x00, 0x00, 0x00, 0x02, 0x00, 0x00, 0x00,
  0x00, 0x00, 0x00, 0x02, 0x20, 0x00, 0x00, 0x00, 0x04, 0x00, 0x04, 0x00,
  0x04, 0x00, 0x00, 0x00, 0x0e, 0x00, 0x00, 0x00, 0x61, 0x72, 0x69, 0x74,
  0x68, 0x2e, 0x63, 0x6f, 0x6e, 0x73, 0x74, 0x61, 0x6e, 0x74, 0x00, 0x00,
  0x01, 0x00, 0x00, 0x00, 0x02, 0x00, 0x00, 0x00, 0x00, 0x00, 0x16, 0x00,
  0x20, 0x00, 0x1c, 0x00, 0x1b, 0x00, 0x14, 0x00, 0x10, 0x00, 0x0c, 0x00,
  0x00, 0x00, 0x00, 0x00, 0x08, 0x00, 0x07, 0x00, 0x16, 0x00, 0x00, 0x00,
  0x00, 0x00, 0x00, 0x01, 0x18, 0x00, 0x00, 0x00, 0x34, 0x00, 0x00, 0x00,
  0x50, 0x00, 0x00, 0x00, 0x01, 0x00, 0x00, 0x00, 0x00, 0x00, 0x00, 0x09,
  0x6c, 0x00, 0x00, 0x00, 0x04, 0x00, 0x00, 0x00, 0xff, 0xff, 0xff, 0xff,
  0x20, 0x00, 0x00, 0x00, 0x20, 0x00, 0x00, 0x00, 0x01, 0x00, 0x00, 0x00,
  0x0c, 0x00, 0x0c, 0x00, 0x00, 0x00, 0x00, 0x00, 0x08, 0x00, 0x04, 0x00,
  0x0c, 0x00, 0x00, 0x00, 0x08, 0x00, 0x00, 0x00, 0x10, 0x00, 0x00, 0x00,
  0x01, 0x00, 0x00, 0x00, 0x80, 0xff, 0xff, 0xff, 0xff, 0xff, 0xff, 0xff,
  0x01, 0x00, 0x00, 0x00, 0x35, 0xfe, 0x80, 0x37, 0x20, 0x00, 0x00, 0x00,
  0x73, 0x65, 0x72, 0x76, 0x69, 0x6e, 0x67, 0x5f, 0x64, 0x65, 0x66, 0x61,
  0x75, 0x6c, 0x74, 0x5f, 0x63, 0x6f, 0x6e, 0x76, 0x32, 0x64, 0x5f, 0x33,
  0x5f, 0x69, 0x6e, 0x70, 0x75, 0x74, 0x3a, 0x30, 0x00, 0x00, 0x00, 0x00,
  0x04, 0x00, 0x00, 0x00, 0x01, 0x00, 0x00, 0x00, 0x20, 0x00, 0x00, 0x00,
  0x20, 0x00, 0x00, 0x00, 0x01, 0x00, 0x00, 0x00, 0x05, 0x00, 0x00, 0x00,
  0x68, 0x00, 0x00, 0x00, 0x48, 0x00, 0x00, 0x00, 0x38, 0x00, 0x00, 0x00,
  0x18, 0x00, 0x00, 0x00, 0x04, 0x00, 0x00, 0x00, 0xb8, 0xff, 0xff, 0xff,
  0x19, 0x00, 0x00, 0x00, 0x02, 0x00, 0x00, 0x00, 0x00, 0x00, 0x00, 0x19,
  0xc8, 0xff, 0xff, 0xff, 0x09, 0x00, 0x00, 0x00, 0x04, 0x00, 0x00, 0x00,
  0x00, 0x00, 0x00, 0x09, 0x0c, 0x00, 0x0c, 0x00, 0x0b, 0x00, 0x00, 0x00,
  0x00, 0x00, 0x04, 0x00, 0x0c, 0x00, 0x00, 0x00, 0x16, 0x00, 0x00, 0x00,
  0x00, 0x00, 0x00, 0x16, 0xf0, 0xff, 0xff, 0xff, 0x11, 0x00, 0x00, 0x00,
  0x02, 0x00, 0x00, 0x00, 0x00, 0x00, 0x00, 0x11, 0x0c, 0x00, 0x10, 0x00,
  0x0f, 0x00, 0x00, 0x00, 0x08, 0x00, 0x04, 0x00, 0x0c, 0x00, 0x00, 0x00,
  0x03, 0x00, 0x00, 0x00, 0x03, 0x00, 0x00, 0x00, 0x00, 0x00, 0x00, 0x03
};
